<?xml version="1.0"?>
<opencv_storage>
<stage5>
  <maxWeakCount>7</maxWeakCount>
  <stageThreshold>-1.4543043375015259e+00</stageThreshold>
  <weakClassifiers>
    <_>
      <internalNodes>
        0 -1 2013 3.7650234997272491e-02</internalNodes>
      <leafValues>
        -5.5395680665969849e-01 6.0313314199447632e-01</leafValues></_>
    <_>
      <internalNodes>
        0 -1 2701 3.0761579051613808e-02</internalNodes>
      <leafValues>
        -5.0367140769958496e-01 5.3111594915390015e-01</leafValues></_>
    <_>
      <internalNodes>
        0 -1 4030 2.2664982825517654e-02</internalNodes>
      <leafValues>
        -6.5630370378494263e-01 3.9394196867942810e-01</leafValues></_>
    <_>
      <internalNodes>
        0 -1 4107 1.6666151583194733e-02</internalNodes>
      <leafValues>
        -7.8916323184967041e-01 3.2047107815742493e-01</leafValues></_>
    <_>
      <internalNodes>
        0 -1 1178 5.6197337806224823e-02</internalNodes>
      <leafValues>
        -7.0112705230712891e-01 3.3527836203575134e-01</leafValues></_>
    <_>
      <internalNodes>
        0 -1 1124 3.1544622033834457e-02</internalNodes>
      <leafValues>
        3.4904330968856812e-01 -6.4778441190719604e-01</leafValues></_>
    <_>
      <internalNodes>
        0 -1 5813 3.8687862455844879e-02</internalNodes>
      <leafValues>
        -8.5625129938125610e-01 2.9124030470848083e-01</leafValues></_></weakClassifiers></stage5>
</opencv_storage>
