<?xml version="1.0"?>
<opencv_storage>
<stage11>
  <maxWeakCount>10</maxWeakCount>
  <stageThreshold>-1.2084121704101562e+00</stageThreshold>
  <weakClassifiers>
    <_>
      <internalNodes>
        0 -1 1306 3.8223005831241608e-02</internalNodes>
      <leafValues>
        -4.4034707546234131e-01 5.9882003068923950e-01</leafValues></_>
    <_>
      <internalNodes>
        0 -1 5377 1.2525997590273619e-03</internalNodes>
      <leafValues>
        6.6318041086196899e-01 -2.8787761926651001e-01</leafValues></_>
    <_>
      <internalNodes>
        0 -1 3555 2.0239211618900299e-02</internalNodes>
      <leafValues>
        -6.3992875814437866e-01 3.0296891927719116e-01</leafValues></_>
    <_>
      <internalNodes>
        0 -1 595 4.1895933449268341e-02</internalNodes>
      <leafValues>
        -3.5452455282211304e-01 5.1484620571136475e-01</leafValues></_>
    <_>
      <internalNodes>
        0 -1 1248 1.8174253404140472e-02</internalNodes>
      <leafValues>
        -7.2441142797470093e-01 2.0553928613662720e-01</leafValues></_>
    <_>
      <internalNodes>
        0 -1 1205 6.9619789719581604e-02</internalNodes>
      <leafValues>
        -7.2577595710754395e-01 2.3193697631359100e-01</leafValues></_>
    <_>
      <internalNodes>
        0 -1 2524 2.0471122115850449e-02</internalNodes>
      <leafValues>
        -8.1527447700500488e-01 1.6947108507156372e-01</leafValues></_>
    <_>
      <internalNodes>
        0 -1 7576 2.3433428257703781e-02</internalNodes>
      <leafValues>
        -5.9784871339797974e-01 2.5372257828712463e-01</leafValues></_>
    <_>
      <internalNodes>
        0 -1 5888 1.8689028918743134e-02</internalNodes>
      <leafValues>
        -5.1447767019271851e-01 2.8396895527839661e-01</leafValues></_>
    <_>
      <internalNodes>
        0 -1 9451 1.8454693257808685e-02</internalNodes>
      <leafValues>
        2.9826360940933228e-01 -5.3268712759017944e-01</leafValues></_></weakClassifiers></stage11>
</opencv_storage>
